00000000
00000000
00000000
00000000
00000000
00000000
00000000
00000000
00000000
00000000
00000000
00000000
00000000
00000000
00000000
00000000
00000000
00000000
00000000
00000000
00000000
00000000
00000000
00000000
00000000
00000000
00000000
00000000
00000000
00000000
00000000
00000000
00000000
00000000
00000000
00000000
00000000
00000000
00000000
00000000
00000000
00000000
00000000
00000000
00000000
00000000
00000000
00000000
00000000
00000000
00000000
00000000
00000000
00000000
00000000
00000000
00000000
00000000
00000000
00000000
00000000
00000000
00000000
00000000
00000000
0000654F
0000CA8F
00012FB0
000194A1
0001F952
00025DB4
0002C1B8
0003254C
00038863
0003EAEC
00044CD8
0004AE17
00050E9B
00056E54
0005CD33
00062B2A
00068829
0006E422
00073F07
000798C9
0007F15B
000848AE
00089EB5
0008F363
000946A9
0009987C
0009E8CD
000A3791
000A84BC
000AD041
000B1A14
000B622A
000BA877
000BECF1
000C2F8D
000C7040
000CAF00
000CEBC4
000D2682
000D5F30
000D95C6
000DCA3B
000DFC87
000E2CA3
000E5A86
000E8629
000EAF86
000ED696
000EFB53
000F1DB7
000F3DBD
000F5B60
000F769B
000F8F6A
000FA5C9
000FB9B5
000FCB2A
000FDA26
000FE6A6
000FF0A8
000FF82B
000FFD2E
000FFFAF
000FFFAF
000FFD2E
000FF82B
000FF0A8
000FE6A6
000FDA26
000FCB2A
000FB9B5
000FA5C9
000F8F6A
000F769B
000F5B60
000F3DBD
000F1DB7
000EFB53
000ED696
000EAF86
000E8629
000E5A86
000E2CA3
000DFC87
000DCA3B
000D95C6
000D5F30
000D2682
000CEBC4
000CAF00
000C7040
000C2F8D
000BECF1
000BA877
000B622A
000B1A14
000AD041
000A84BC
000A3791
0009E8CD
0009987C
000946A9
0008F363
00089EB5
000848AE
0007F15B
000798C9
00073F07
0006E422
00068829
00062B2A
0005CD33
00056E54
00050E9B
0004AE17
00044CD8
0003EAEC
00038863
0003254C
0002C1B8
00025DB4
0001F952
000194A1
00012FB0
0000CA8F
0000654F
00000000
00000000
00000000
00000000
00000000
00000000
00000000
00000000
00000000
00000000
00000000
00000000
00000000
00000000
00000000
00000000
00000000
00000000
00000000
00000000
00000000
00000000
00000000
00000000
00000000
00000000
00000000
00000000
00000000
00000000
00000000
00000000
00000000
00000000
00000000
00000000
00000000
00000000
00000000
00000000
00000000
00000000
00000000
00000000
00000000
00000000
00000000
00000000
00000000
00000000
00000000
00000000
00000000
00000000
00000000
00000000
00000000
00000000
00000000
00000000
00000000
00000000
00000000
00000000
00000000
